TRT-100300-EntropyCalibration2
images: 3c1d4a93
/model.0/conv/Conv_output_0: 3e9cb527
/model.0/act/Sigmoid_output_0: 3c010a14
/model.0/act/Mul_output_0: 3e90e0ae
/model.1/conv/Conv_output_0: 3f2593a7
/model.1/act/Sigmoid_output_0: 3c010a14
/model.1/act/Mul_output_0: 3ea05cae
/model.2/cv1/conv/Conv_output_0: 3ec3ca53
/model.2/cv1/act/Sigmoid_output_0: 3c010a14
/model.2/cv1/act/Mul_output_0: 3e85cb34
/model.2/Split_output_0: 3e8816c1
/model.2/Split_output_1: 3d91925a
/model.2/m.0/cv1/conv/Conv_output_0: 3e67e7d6
/model.2/m.0/cv1/act/Sigmoid_output_0: 3c010a14
/model.2/m.0/cv1/act/Mul_output_0: 3e8cc2c1
/model.2/m.0/cv2/conv/Conv_output_0: 3e82b0f0
/model.2/m.0/cv2/act/Sigmoid_output_0: 3c010a14
/model.2/m.0/cv2/act/Mul_output_0: 3e85c7a5
/model.2/m.0/Add_output_0: 3e8d33ad
/model.2/Concat_output_0: 3e8b9467
/model.2/cv2/conv/Conv_output_0: 3e0282ea
/model.2/cv2/act/Sigmoid_output_0: 3c00ea69
/model.2/cv2/act/Mul_output_0: 3d661a14
/model.3/conv/Conv_output_0: 3d72d722
/model.3/act/Sigmoid_output_0: 3bff4de2
/model.3/act/Mul_output_0: 3d1121c7
/model.4/cv1/conv/Conv_output_0: 3da27484
/model.4/cv1/act/Sigmoid_output_0: 3c00ad64
/model.4/cv1/act/Mul_output_0: 3d015a4d
/model.4/Split_output_0: 3d015a4d
/model.4/Split_output_1: 3ca57fcf
/model.4/m.0/cv1/conv/Conv_output_0: 3d1178c6
/model.4/m.0/cv1/act/Sigmoid_output_0: 3bf6cb50
/model.4/m.0/cv1/act/Mul_output_0: 3c3f80c1
/model.4/m.0/cv2/conv/Conv_output_0: 3d0ffe7b
/model.4/m.0/cv2/act/Sigmoid_output_0: 3bfae2fd
/model.4/m.0/cv2/act/Mul_output_0: 3ca54734
/model.4/m.0/Add_output_0: 3d0f9d20
/model.4/m.1/cv1/conv/Conv_output_0: 3d08acef
/model.4/m.1/cv1/act/Sigmoid_output_0: 3bde8798
/model.4/m.1/cv1/act/Mul_output_0: 3bf9b832
/model.4/m.1/cv2/conv/Conv_output_0: 3d2a65df
/model.4/m.1/cv2/act/Sigmoid_output_0: 3bfe0143
/model.4/m.1/cv2/act/Mul_output_0: 3cd32019
/model.4/m.1/Add_output_0: 3d535380
/model.4/Concat_output_0: 3d2784cc
/model.4/cv2/conv/Conv_output_0: 3d37433a
/model.4/cv2/act/Sigmoid_output_0: 3bfc40ac
/model.4/cv2/act/Mul_output_0: 3c906f4a
/model.5/conv/Conv_output_0: 3d3910b6
/model.5/act/Sigmoid_output_0: 3bf1cdc6
/model.5/act/Mul_output_0: 3c740212
/model.6/cv1/conv/Conv_output_0: 3d970642
/model.6/cv1/act/Sigmoid_output_0: 3bfc8f2b
/model.6/cv1/act/Mul_output_0: 3cd2bbf1
/model.6/Split_output_0: 3cd2bbf1
/model.6/Split_output_1: 3c90360e
/model.6/m.0/cv1/conv/Conv_output_0: 3d094ba0
/model.6/m.0/cv1/act/Sigmoid_output_0: 3be8a4fb
/model.6/m.0/cv1/act/Mul_output_0: 3c3921fd
/model.6/m.0/cv2/conv/Conv_output_0: 3cf90d70
/model.6/m.0/cv2/act/Sigmoid_output_0: 3be8137b
/model.6/m.0/cv2/act/Mul_output_0: 3c51977c
/model.6/m.0/Add_output_0: 3cdb002e
/model.6/m.1/cv1/conv/Conv_output_0: 3d17e008
/model.6/m.1/cv1/act/Sigmoid_output_0: 3bdcfbda
/model.6/m.1/cv1/act/Mul_output_0: 3b105ebc
/model.6/m.1/cv2/conv/Conv_output_0: 3d15538c
/model.6/m.1/cv2/act/Sigmoid_output_0: 3bf7c2b8
/model.6/m.1/cv2/act/Mul_output_0: 3cbfe2e8
/model.6/m.1/Add_output_0: 3d0921fc
/model.6/Concat_output_0: 3ce60efe
/model.6/cv2/conv/Conv_output_0: 3d22c391
/model.6/cv2/act/Sigmoid_output_0: 3bedddbc
/model.6/cv2/act/Mul_output_0: 3c41160d
/model.7/conv/Conv_output_0: 3d34f174
/model.7/act/Sigmoid_output_0: 3bfbeff7
/model.7/act/Mul_output_0: 3c527e3a
/model.8/cv1/conv/Conv_output_0: 3d5e933f
/model.8/cv1/act/Sigmoid_output_0: 3c00c78b
/model.8/cv1/act/Mul_output_0: 3cd19ecc
/model.8/Split_output_0: 3d24b3a0
/model.8/Split_output_1: 3b11232c
/model.8/m.0/cv1/conv/Conv_output_0: 3d213b44
/model.8/m.0/cv1/act/Sigmoid_output_0: 3c072f6c
/model.8/m.0/cv1/act/Mul_output_0: 3c99c5d6
/model.8/m.0/cv2/conv/Conv_output_0: 3d5385ae
/model.8/m.0/cv2/act/Sigmoid_output_0: 3bfdaf24
/model.8/m.0/cv2/act/Mul_output_0: 3cbfd342
/model.8/m.0/Add_output_0: 3d07abf9
/model.8/Concat_output_0: 3cd19ecc
/model.8/cv2/conv/Conv_output_0: 3d04ce04
/model.8/cv2/act/Sigmoid_output_0: 3bf8c085
/model.8/cv2/act/Mul_output_0: 3c902985
/model.9/cv1/conv/Conv_output_0: 3d13a060
/model.9/cv1/act/Sigmoid_output_0: 3bfd1c91
/model.9/cv1/act/Mul_output_0: 3d1033ef
/model.9/m/MaxPool_output_0: 3d1033ef
/model.9/m_1/MaxPool_output_0: 3d1033ef
/model.9/m_2/MaxPool_output_0: 3d1033ef
/model.9/Concat_output_0: 3d225c34
/model.9/cv2/conv/Conv_output_0: 3d498c9a
/model.9/cv2/act/Sigmoid_output_0: 3bf46520
/model.9/cv2/act/Mul_output_0: 3c80204e
/model.10/Resize_output_0: 3c80204e
/model.11/Concat_output_0: 3c80204e
/model.12/cv1/conv/Conv_output_0: 3d50cedf
/model.12/cv1/act/Sigmoid_output_0: 3bf02f53
/model.12/cv1/act/Mul_output_0: 3c90567a
/model.12/Split_output_0: 3c6729aa
/model.12/Split_output_1: 3c99ec23
/model.12/m.0/cv1/conv/Conv_output_0: 3d108ec1
/model.12/m.0/cv1/act/Sigmoid_output_0: 3be6f235
/model.12/m.0/cv1/act/Mul_output_0: 3c150386
/model.12/m.0/cv2/conv/Conv_output_0: 3cb0e2b9
/model.12/m.0/cv2/act/Sigmoid_output_0: 3bef79c4
/model.12/m.0/cv2/act/Mul_output_0: 3c66e179
/model.12/Concat_output_0: 3c90567a
/model.12/cv2/conv/Conv_output_0: 3cf66720
/model.12/cv2/act/Sigmoid_output_0: 3be74410
/model.12/cv2/act/Mul_output_0: 3c733182
/model.13/Resize_output_0: 3c733182
/model.14/Concat_output_0: 3c906f4a
/model.15/cv1/conv/Conv_output_0: 3d253f68
/model.15/cv1/act/Sigmoid_output_0: 3bee8705
/model.15/cv1/act/Mul_output_0: 3c809d17
/model.15/Split_output_0: 3c51b68a
/model.15/Split_output_1: 3c90911f
/model.15/m.0/cv1/conv/Conv_output_0: 3d0d18fa
/model.15/m.0/cv1/act/Sigmoid_output_0: 3beafcb6
/model.15/m.0/cv1/act/Mul_output_0: 3c660b48
/model.15/m.0/cv2/conv/Conv_output_0: 3d06052e
/model.15/m.0/cv2/act/Sigmoid_output_0: 3bfc5e3a
/model.15/m.0/cv2/act/Mul_output_0: 3ce8b3bb
/model.15/Concat_output_0: 3cd38938
/model.15/cv2/conv/Conv_output_0: 3d1cfd89
/model.15/cv2/act/Sigmoid_output_0: 3bf8529c
/model.15/cv2/act/Mul_output_0: 3c902b4f
/model.16/conv/Conv_output_0: 3d0c8938
/model.22/cv2.0/cv2.0.0/conv/Conv_output_0: 3d4faa86
/model.22/cv3.0/cv3.0.0/conv/Conv_output_0: 3d294ede
/model.16/act/Sigmoid_output_0: 3bfb5949
/model.22/cv2.0/cv2.0.0/act/Sigmoid_output_0: 3bf732bb
/model.22/cv3.0/cv3.0.0/act/Sigmoid_output_0: 3be54fcc
/model.16/act/Mul_output_0: 3c8888d2
/model.22/cv2.0/cv2.0.0/act/Mul_output_0: 3c66ca0c
/model.22/cv3.0/cv3.0.0/act/Mul_output_0: 3c2b0bf7
/model.17/Concat_output_0: 3c8888d2
/model.22/cv2.0/cv2.0.1/conv/Conv_output_0: 3dfc5fe2
/model.22/cv3.0/cv3.0.1/conv/Conv_output_0: 3de4bede
/model.18/cv1/conv/Conv_output_0: 3d0d4089
/model.22/cv2.0/cv2.0.1/act/Sigmoid_output_0: 3c010a14
/model.22/cv3.0/cv3.0.1/act/Sigmoid_output_0: 3c01121e
/model.18/cv1/act/Sigmoid_output_0: 3bf9f6f9
/model.22/cv2.0/cv2.0.1/act/Mul_output_0: 3dc916a6
/model.22/cv3.0/cv3.0.1/act/Mul_output_0: 3dc7ade1
/model.18/cv1/act/Mul_output_0: 3cb10c85
/model.22/cv2.0/cv2.0.2/Conv_output_0: 3db74da4
/model.22/cv3.0/cv3.0.2/Conv_output_0: 3e1b88ee
/model.18/Split_output_0: 3c5286ce
/model.18/Split_output_1: 3cb10c85
/model.22/Reshape_output_0: 3db74da4
/model.22/Reshape_3_output_0: 3e1b88ee
/model.18/m.0/cv1/conv/Conv_output_0: 3d08d7b1
/model.18/m.0/cv1/act/Sigmoid_output_0: 3be8a12c
/model.18/m.0/cv1/act/Mul_output_0: 3b10be70
/model.18/m.0/cv2/conv/Conv_output_0: 3d20578d
/model.18/m.0/cv2/act/Sigmoid_output_0: 3bfe4960
/model.18/m.0/cv2/act/Mul_output_0: 3cbfd03c
/model.18/Concat_output_0: 3ca4512c
/model.18/cv2/conv/Conv_output_0: 3d5b3fc3
/model.18/cv2/act/Sigmoid_output_0: 3befd073
/model.18/cv2/act/Mul_output_0: 3c7fc066
/model.19/conv/Conv_output_0: 3d1eb511
/model.22/cv2.1/cv2.1.0/conv/Conv_output_0: 3d6f86f7
/model.22/cv3.1/cv3.1.0/conv/Conv_output_0: 3d4aa337
/model.19/act/Sigmoid_output_0: 3bf4b88f
/model.22/cv2.1/cv2.1.0/act/Sigmoid_output_0: 3bfe3a5a
/model.22/cv3.1/cv3.1.0/act/Sigmoid_output_0: 3bed71bb
/model.19/act/Mul_output_0: 3c73be10
/model.22/cv2.1/cv2.1.0/act/Mul_output_0: 3d01388d
/model.22/cv3.1/cv3.1.0/act/Mul_output_0: 3c9953a8
/model.20/Concat_output_0: 3c80204e
/model.22/cv2.1/cv2.1.1/conv/Conv_output_0: 3e275a89
/model.22/cv3.1/cv3.1.1/conv/Conv_output_0: 3ddac8c3
/model.21/cv1/conv/Conv_output_0: 3d321444
/model.22/cv2.1/cv2.1.1/act/Sigmoid_output_0: 3c010a14
/model.22/cv3.1/cv3.1.1/act/Sigmoid_output_0: 3c01f3d6
/model.21/cv1/act/Sigmoid_output_0: 3bf7253d
/model.22/cv2.1/cv2.1.1/act/Mul_output_0: 3dc66435
/model.22/cv3.1/cv3.1.1/act/Mul_output_0: 3dc1401b
/model.21/cv1/act/Mul_output_0: 3ca4b69a
/model.22/cv2.1/cv2.1.2/Conv_output_0: 3d986cb4
/model.22/cv3.1/cv3.1.2/Conv_output_0: 3e134f13
/model.21/Split_output_0: 3c5b8710
/model.21/Split_output_1: 3ca4b69a
/model.22/Reshape_1_output_0: 3d986cb4
/model.22/Reshape_4_output_0: 3e134f13
/model.21/m.0/cv1/conv/Conv_output_0: 3d48854a
/model.21/m.0/cv1/act/Sigmoid_output_0: 3bf414ec
/model.21/m.0/cv1/act/Mul_output_0: 3c9a51f5
/model.21/m.0/cv2/conv/Conv_output_0: 3d657bb8
/model.21/m.0/cv2/act/Sigmoid_output_0: 3bfedde3
/model.21/m.0/cv2/act/Mul_output_0: 3d018a4a
/model.21/Concat_output_0: 3ce92184
/model.21/cv2/conv/Conv_output_0: 3de20b9a
/model.21/cv2/act/Sigmoid_output_0: 3bfc1a4a
/model.21/cv2/act/Mul_output_0: 3c5d1141
/model.22/cv2.2/cv2.2.0/conv/Conv_output_0: 3d8e4f42
/model.22/cv3.2/cv3.2.0/conv/Conv_output_0: 3d6de553
/model.22/cv2.2/cv2.2.0/act/Sigmoid_output_0: 3c020cac
/model.22/cv3.2/cv3.2.0/act/Sigmoid_output_0: 3bff7c1e
/model.22/cv2.2/cv2.2.0/act/Mul_output_0: 3d3ff3d1
/model.22/cv3.2/cv3.2.0/act/Mul_output_0: 3ce5819c
/model.22/cv2.2/cv2.2.1/conv/Conv_output_0: 3e9bedc8
/model.22/cv3.2/cv3.2.1/conv/Conv_output_0: 3e9c6bb9
/model.22/cv2.2/cv2.2.1/act/Sigmoid_output_0: 3c010a14
/model.22/cv3.2/cv3.2.1/act/Sigmoid_output_0: 3c010a14
/model.22/cv2.2/cv2.2.1/act/Mul_output_0: 3e9a922a
/model.22/cv3.2/cv3.2.1/act/Mul_output_0: 3e1b9090
/model.22/cv2.2/cv2.2.2/Conv_output_0: 3d944c7d
/model.22/cv3.2/cv3.2.2/Conv_output_0: 3e47f1f9
/model.22/Reshape_2_output_0: 3d944c7d
/model.22/Reshape_5_output_0: 3e47f1f9
/model.22/Concat_output_0: 3db74da4
/model.22/Concat_1_output_0: 3e276234
/model.22/dfl/Reshape_output_0: 3db74da4
/model.22/Sigmoid_output_0: 3900dc93
/model.22/dfl/Transpose_output_0: 3db74da4
/model.22/dfl/Softmax_output: 3b978cdf
/model.22/dfl/Softmax_output_0: 3b978cdf
/model.22/dfl/conv/Conv_output_0: 3db8feb5
/model.22/dfl/Reshape_1_output_0: 3db8feb5
/model.22/Slice_1_output_0: 3dd7622a
/model.22/Mul_2_output_0: 40a097d3
/model.22/Constant_12_output_0_output: 3f204a85
/model.22/Sub_output_0: 3f1f9704
/model.22/Constant_14_output_0_output: 3c810a14
output0: 40a097d3
ONNXTRT_Broadcast_95_output: 3e810a14
/model.22/Sub_1_output_0: 3e37c94d
/model.22/Constant_15_output_0_output: 3e810a14
/model.22/Constant_13_output_0_output: 3f204a85
/model.22/Add_2_output_0: 3fa3a5b8
/model.22/Slice_output_0: 3dc729ef
ONNXTRT_Broadcast_output: 3c810a14
/model.22/Concat_2_output_0: 3f2123fa
/model.22/Add_1_output_0: 3f21dfec
/model.22/Div_1_output_0: 3f23a5b8
